TRT-7103-EntropyCalibration
inputs: 3c010a14
984: 3df68f0c
(Unnamed Layer* 335) [Shuffle]_output: 3d051265
(Unnamed Layer* 479) [Shuffle]_output: 38ce7687
(Unnamed Layer* 482) [Shuffle]_output: 38ce7687
(Unnamed Layer* 597) [Shuffle]_output: 3d6feebd
(Unnamed Layer* 741) [Shuffle]_output: 394e7687
(Unnamed Layer* 744) [Shuffle]_output: 394e7687
(Unnamed Layer* 859) [Shuffle]_output: 3dbc03af
(Unnamed Layer* 1003) [Shuffle]_output: 39ce7687
(Unnamed Layer* 1006) [Shuffle]_output: 39ce7687
355: 3d6e3260
987: 3dfd1a19
359: 3dced4c7
990: 3e0393d9
999: 3e206364
363: 3d6dd591
376: 3d88af6c
993: 3df931e8
367: 3d12f0ee
996: 3dc0b6ef
372: 3de34398
1002: 3dd3da5c
381: 3d297b66
1005: 3d8fe94b
385: 3d24ecbf
1008: 3d20dcbf
1023: 3d65fd1a
389: 3ce8e269
411: 3d25cf4c
1011: 3d9f6237
393: 3d28523a
1014: 3d5b7c07
398: 3d6571af
1017: 3da0a98f
402: 3d003411
1020: 3d919ea5
407: 3d9b64f9
1026: 3d7b9035
416: 3d00fd48
1029: 3d82792e
420: 3d00419b
1032: 3d44e6a6
1053: 3d620c3c
424: 3d01f773
455: 3d13175b
1035: 3d91588e
428: 3d28ea52
1038: 3d804a32
433: 3d662019
1041: 3d7c363f
437: 3d28e117
1044: 3d7bf091
442: 3d83b831
1047: 3d78c0c8
446: 3d11d14d
1050: 3d8c270e
451: 3db8a811
1056: 3d6d0887
460: 3d002d24
1059: 3d6a13e9
464: 3d296220
1062: 3d5b22f1
1071: 3d56293c
468: 3d123fb6
481: 3d02043c
1065: 3d80890f
472: 3cfef5e2
1068: 3d820f2f
477: 3d8db9c6
1074: 3d5e2461
486: 3ce65892
1077: 3d5c497e
490: 3d015d2e
491: 3d872e39
492: 3d872e39
493: 3d9a3f98
1080: 3d53c102
498: 3d01e46f
1083: 3d61d903
502: 3ce63d23
521: 3ce63d23
1086: 3d520b11
1095: 3d872fe8
526: 3cd1af7c
539: 3d0296b4
1089: 3d64af8f
530: 3d015557
1092: 3d855cf6
535: 3d8dd099
1098: 3d75d657
544: 3d01c2cc
1101: 3d93a9c4
548: 3d136a92
567: 3d136a92
1104: 3d26aac8
1113: 3d8dcf79
572: 3cc1d0d2
585: 3d14e305
1107: 3d8e199f
576: 3d13bb8e
1110: 3db8c552
581: 3da42416
1116: 3de7e033
590: 3d4585a4
1119: 3d938aee
683: 3e03a2a1
594: 3d127305
613: 3d002453
702: 3e03a2a1
1122: 3d6e42ce
1131: 3d807f5a
731: 3f1f4871
735: 3f1f4871
618: 3cc366d5
631: 3d02a03d
1125: 3da9b467
622: 3d4981c3
1128: 3dbf77eb
(Unnamed Layer* 431) [Shuffle]_output: 3f1f4871
707: 3cf65fbb
717: 3d40af10
773: 3e0a9d8c
(Unnamed Layer* 378) [Shuffle]_output: 3f1f4871
774: 3c010f97
627: 3da27bc4
746: 3f1f4871
758: 3f1f4871
1134: 3db358d3
768: 3abec87e
636: 3d2456c3
747: 3f1f4871
759: 3f1f4871
1137: 3d91cf8b
783: 3e0a48f6
640: 3d2823a7
760: 3f1f4871
761: 3f1f4871
763: 3f1f4871
659: 3cbf675a
802: 3e0a48f6
1140: 3d657b8e
1149: 3d4cf001
831: 3e9d4449
835: 3e9d4449
(Unnamed Layer* 476) [Shuffle]_output: 3f1f4871
664: 3cb2c834
677: 3cd3e7e4
766: 3c0086ff
1143: 3d8b4848
782: 3c010f97
668: 3d11c4c1
1146: 3d96348c
(Unnamed Layer* 693) [Shuffle]_output: 3e9d4449
807: 3d1201ab
817: 3d62f8c2
873: 3e16f203
(Unnamed Layer* 640) [Shuffle]_output: 3e9d4449
874: 3c010ef6
673: 3d908506
846: 3e9d4449
858: 3e9d4449
1152: 3d700879
868: 3ba76a92
682: 3d15be87
847: 3e9d4449
859: 3e9d4449
883: 3df9c3aa
860: 3e9d4449
861: 3e9d4449
863: 3e9d4449
902: 3df9c3aa
931: 3e193bf8
935: 3e193bf8
(Unnamed Layer* 738) [Shuffle]_output: 3e9d4449
866: 3c01530e
882: 3c09a9f3
(Unnamed Layer* 955) [Shuffle]_output: 3e193bf8
907: 3d1e5f9c
917: 3d0f2826
973: 3e01c125
(Unnamed Layer* 902) [Shuffle]_output: 3e193bf8
974: 3c01d94d
946: 3e193bf8
958: 3e193bf8
968: 3cb22dce
947: 3e193bf8
959: 3e193bf8
960: 3e193bf8
961: 3e193bf8
963: 3e193bf8
(Unnamed Layer* 1000) [Shuffle]_output: 3e193bf8
966: 3c020778
982: 3c89bf2c
